{
  "version": "1.0",
  "truncation": null,
  "padding": null,
  "added_tokens": [
    {
      "id": 0,
      "content": "<EOS>",
      "single_word": false,
      "lstrip": false,
      "rstrip": false,
      "normalized": false,
      "special": true
    }
  ],
  "normalizer": {
    "type": "NFKC"
  },
  "pre_tokenizer": {
    "type": "ByteLevel",
    "add_prefix_space": true,
    "trim_offsets": true,
    "use_regex": false
  },
  "post_processor": null,
  "decoder": {
    "type": "ByteLevel",
    "add_prefix_space": true,
    "trim_offsets": true,
    "use_regex": true
  },
  "model": {
    "type": "BPE",
    "dropout": null,
    "unk_token": null,
    "continuing_subword_prefix": null,
    "end_of_word_suffix": null,
    "fuse_unk": false,
    "byte_fallback": true,
    "ignore_merges": false,
    "vocab": {
      "<EOS>": 0,
      "!": 1,
      "$": 2,
      "&": 3,
      "'": 4,
      ",": 5,
      "-": 6,
      ".": 7,
      "3": 8,
      ":": 9,
      ";": 10,
      "?": 11,
      "A": 12,
      "B": 13,
      "C": 14,
      "D": 15,
      "E": 16,
      "F": 17,
      "G": 18,
      "H": 19,
      "I": 20,
      "J": 21,
      "K": 22,
      "L": 23,
      "M": 24,
      "N": 25,
      "O": 26,
      "P": 27,
      "Q": 28,
      "R": 29,
      "S": 30,
      "T": 31,
      "U": 32,
      "V": 33,
      "W": 34,
      "X": 35,
      "Y": 36,
      "Z": 37,
      "a": 38,
      "b": 39,
      "c": 40,
      "d": 41,
      "e": 42,
      "f": 43,
      "g": 44,
      "h": 45,
      "i": 46,
      "j": 47,
      "k": 48,
      "l": 49,
      "m": 50,
      "n": 51,
      "o": 52,
      "p": 53,
      "q": 54,
      "r": 55,
      "s": 56,
      "t": 57,
      "u": 58,
      "v": 59,
      "w": 60,
      "x": 61,
      "y": 62,
      "z": 63,
      "Ċ": 64,
      "Ġ": 65,
      "eĠ": 66,
      "th": 67,
      "tĠ": 68,
      "sĠ": 69,
      "dĠ": 70,
      ",Ġ": 71,
      "ou": 72,
      "er": 73,
      "in": 74,
      "yĠ": 75,
      "an": 76,
      ":Ċ": 77,
      "or": 78,
      "oĠ": 79,
      "en": 80,
      "ar": 81,
      "ĠĊ": 82,
      "Ġth": 83,
      ".Ċ": 84,
      "on": 85,
      "ll": 86,
      "ha": 87,
      ",Ċ": 88,
      "isĠ": 89,
      "es": 90,
      "you": 91,
      "ĠT": 92,
      "Ġs": 93,
      "ĠI": 94,
      "toĠ": 95,
      "Ġw": 96,
      "ĠA": 97,
      "Ġm": 98,
      "ea": 99,
      "andĠ": 100,
      "ow": 101,
      "of": 102,
      "Ġh": 103,
      "ing": 104,
      "om": 105,
      "Ġa": 106,
      "ĠW": 107,
      "Ġb": 108,
      "ch": 109,
      "theĠ": 110,
      "st": 111,
      "no": 112,
      "for": 113,
      "veĠ": 114,
      "ir": 115,
      "e,Ġ": 116,
      "ĠtheĠ": 117,
      "ith": 118,
      "se": 119,
      "li": 120,
      "ĠTh": 121,
      "re": 122,
      "atĠ": 123,
      "im": 124,
      "ear": 125,
      "llĠ": 126,
      "stĠ": 127,
      "it": 128,
      "oo": 129,
      "ĠAn": 130,
      "gh": 131,
      "ĠB": 132,
      "at": 133,
      "is": 134,
      "Ġd": 135,
      "le": 136,
      "ĠH": 137,
      "our": 138,
      "ĠS": 139,
      "?Ċ": 140,
      "ĠAndĠ": 141,
      "'sĠ": 142,
      "Ġc": 143,
      "ee": 144,
      "notĠ": 145,
      "myĠ": 146,
      ";Ċ": 147,
      "Ġyou": 148,
      "ur": 149,
      "ĠM": 150,
      "ra": 151,
      "ther": 152,
      "Ġp": 153,
      "ri": 154,
      "ldĠ": 155,
      "hatĠ": 156,
      "utĠ": 157,
      "ĠO": 158,
      "la": 159,
      "Ġf": 160,
      "edĠ": 161,
      "ĠC": 162,
      "ro": 163,
      "itĠ": 164,
      "esĠ": 165,
      "EN": 166,
      "d,Ġ": 167,
      "keĠ": 168,
      "un": 169,
      "Ġt": 170,
      "ĠF": 171,
      "IN": 172,
      "y,Ġ": 173,
      "her": 174,
      "S:Ċ": 175,
      "eĠw": 176,
      "asĠ": 177,
      "al": 178,
      "haveĠ": 179,
      "ce": 180,
      "!Ċ": 181,
      "thatĠ": 182,
      "ĠL": 183,
      "ĠtoĠ": 184,
      "ent": 185,
      "the": 186,
      "Ġof": 187,
      "ver": 188,
      "Ġg": 189,
      "ĠandĠ": 190,
      "O:Ċ": 191,
      "sh": 192,
      "AR": 193,
      "be": 194,
      "ĠG": 195,
      "ma": 196,
      "lo": 197,
      "s,Ġ": 198,
      "ter": 199,
      "ill": 200,
      "ck": 201,
      "ĠN": 202,
      "thou": 203,
      "ceĠ": 204,
      "'dĠ": 205,
      "il": 206,
      "seĠ": 207,
      "ĠY": 208,
      "now": 209,
      "with": 210,
      "ĠR": 211,
      "ĠWh": 212,
      "your": 213,
      "ell": 214,
      "meĠ": 215,
      "rea": 216,
      "ouldĠ": 217,
      "eĊ": 218,
      "t,Ġ": 219,
      "ĠmyĠ": 220,
      "beĠ": 221,
      "US:Ċ": 222,
      "ĠP": 223,
      "e.Ċ": 224,
      "lyĠ": 225,
      "Ġin": 226,
      "fa": 227,
      "ayĠ": 228,
      "ion": 229,
      "ĠD": 230,
      "com": 231,
      "ain": 232,
      "ĠE": 233,
      "if": 234,
      "Ġthe": 235,
      "leĠ": 236,
      "ru": 237,
      "igh": 238,
      "ĠToĠ": 239,
      "and": 240,
      "heĠ": 241,
      "ol": 242,
      "el": 243,
      "wh": 244,
      "ĠTheĠ": 245,
      "IO:Ċ": 246,
      "e,Ċ": 247,
      "up": 248,
      "ed": 249,
      "ord": 250,
      "ereĠ": 251,
      "him": 252,
      "ING": 253,
      "ich": 254,
      "areĠ": 255,
      "oodĠ": 256,
      "id": 257,
      "hisĠ": 258,
      "rom": 259,
      "own": 260,
      "ec": 261,
      "Ġn": 262,
      "us": 263,
      "ay": 264,
      "OR": 265,
      "illĠ": 266,
      "man": 267,
      "oun": 268,
      "ĠhisĠ": 269,
      "etĠ": 270,
      "Ġyour": 271,
      "ag": 272,
      "sel": 273,
      "UC": 274,
      "di": 275,
      "ĠK": 276,
      "all": 277,
      "Ġfor": 278,
      "res": 279,
      "ER": 280,
      "am": 281,
      "et": 282,
      "ĠThatĠ": 283,
      "qu": 284,
      "sha": 285,
      "Ġha": 286,
      "Ġk": 287,
      "ul": 288,
      "po": 289,
      "s,Ċ": 290,
      "em": 291,
      "ven": 292,
      "Ġhim": 293,
      "ET": 294,
      "thyĠ": 295,
      "mor": 296,
      "ĠthatĠ": 297,
      "sĊ": 298,
      "ĠhaveĠ": 299,
      "byĠ": 300,
      "ĠthisĠ": 301,
      "IC": 302,
      "thisĠ": 303,
      "sp": 304,
      "Ġwith": 305,
      "ong": 306,
      "ĠButĠ": 307,
      "OL": 308,
      "estĠ": 309,
      "ĠFor": 310,
      "butĠ": 311,
      "su": 312,
      "ĠV": 313,
      ",ĠandĠ": 314,
      "ew": 315,
      "ut": 316,
      "end": 317,
      "IUS:Ċ": 318,
      "omeĠ": 319,
      "Ġst": 320,
      "ARD": 321,
      "ĠKING": 322,
      "usĠ": 323,
      "self": 324,
      "A:Ċ": 325,
      "ic": 326,
      "Ġ'": 327,
      "con": 328,
      "o,Ġ": 329,
      "essĠ": 330,
      "Ġli": 331,
      "ard": 332,
      "s.Ċ": 333,
      "op": 334,
      "akeĠ": 335,
      "lea": 336,
      "ever": 337,
      "ad": 338,
      "Ġthou": 339,
      "oneĠ": 340,
      "ĠbeĠ": 341,
      "hear": 342,
      "mo": 343,
      "king": 344,
      "entĠ": 345,
      "E:Ċ": 346,
      "est": 347,
      "Ġwh": 348,
      "ousĠ": 349,
      "Ġher": 350,
      "soĠ": 351,
      "loo": 352,
      "sir": 353,
      "ĠMyĠ": 354,
      "--": 355,
      "hereĠ": 356,
      "oth": 357,
      "sw": 358,
      "dĊ": 359,
      "ĠthyĠ": 360,
      "der": 361,
      "Ġam": 362,
      "Ġsha": 363,
      "lord": 364,
      "to": 365,
      "ca": 366,
      "ran": 367,
      "ish": 368,
      "tĊ": 369,
      "ustĠ": 370,
      "uch": 371,
      "noĠ": 372,
      "iveĠ": 373,
      "sa": 374,
      "ĠAsĠ": 375,
      "ES": 376,
      "Ġsh": 377,
      "ink": 378,
      "ab": 379,
      "ĠitĠ": 380,
      "son": 381,
      "row": 382,
      "ĠIĠw": 383,
      "ARDĠI": 384,
      "t.Ċ": 385,
      "Ġan": 386,
      "sĠof": 387,
      "'llĠ": 388,
      "Ġour": 389,
      "eak": 390,
      "ĠWhatĠ": 391,
      "idĠ": 392,
      "de": 393,
      "eath": 394,
      "I:Ċ": 395,
      "ci": 396,
      "y.Ċ": 397,
      "ET:Ċ": 398,
      "e'sĠ": 399,
      "oul": 400,
      "AN": 401,
      "OM": 402,
      "ig": 403,
      "ĠheĠ": 404,
      "goodĠ": 405,
      "per": 406,
      "lov": 407,
      "ĠYou": 408,
      "doĠ": 409,
      ",ĠI": 410,
      "from": 411,
      "ster": 412,
      "LI": 413,
      "wor": 414,
      "ineĠ": 415,
      "ĠisĠ": 416,
      "yĊ": 417,
      "eĠtoĠ": 418,
      "ough": 419,
      "upon": 420,
      "outĠ": 421,
      "d,Ċ": 422,
      "letĠ": 423,
      "erv": 424,
      "Ġbe": 425,
      "ĠbutĠ": 426,
      "K:Ċ": 427,
      "ON": 428,
      "um": 429,
      "ey": 430,
      "irstĠ": 431,
      "hea": 432,
      "EL": 433,
      "oldĠ": 434,
      "ĠRIC": 435,
      "ĠRICH": 436,
      "ay,Ġ": 437,
      "pro": 438,
      "weĠ": 439,
      "ĠIn": 440,
      "UK": 441,
      "ĠnotĠ": 442,
      "ĠDUK": 443,
      "ex": 444,
      "then": 445,
      "ĠIf": 446,
      "ĠDUKE": 447,
      "eĠof": 448,
      "TIO:Ċ": 449,
      "pr": 450,
      "ĠHa": 451,
      "them": 452,
      "other": 453,
      "Ġon": 454,
      "hath": 455,
      "ef": 456,
      "so": 457,
      "eep": 458,
      "d.Ċ": 459,
      "ick": 460,
      "endĠ": 461,
      "ER:Ċ": 462,
      "as": 463,
      "ant": 464,
      "ess": 465,
      "Y:Ċ": 466,
      "shall": 467,
      "Ġar": 468,
      "ĠWith": 469,
      "od": 470,
      "ĠasĠ": 471,
      "whatĠ": 472,
      "ardĠ": 473,
      "bl": 474,
      "thing": 475,
      "rother": 476,
      "t,Ċ": 477,
      "foreĠ": 478,
      "ĠWhich": 479,
      "lor": 480,
      "me": 481,
      "pp": 482,
      "Ġall": 483,
      "Ġfa": 484,
      "ang": 485,
      "Ġcan": 486,
      "bleĠ": 487,
      "tw": 488,
      "ng": 489,
      "ĠJ": 490,
      "Ġno": 491,
      "Ġre": 492,
      "ĠdoĠ": 493,
      "likeĠ": 494,
      "een": 495,
      "ryĠ": 496,
      ";ĠandĠ": 497,
      "INC": 498,
      "au": 499,
      "ep": 500,
      "tim": 501,
      "e?Ċ": 502,
      "y,Ċ": 503,
      "onour": 504,
      "Ġsp": 505,
      "es,Ġ": 506,
      "ign": 507,
      "LO": 508,
      "theyĠ": 509,
      "oseĠ": 510,
      "ower": 511,
      "ĠKINGĠRICH": 512,
      "ĠKINGĠRICHARDĠI": 513,
      "TER:Ċ": 514,
      "tru": 515,
      "AB": 516,
      "ence": 517,
      "ĠFirstĠ": 518,
      "lif": 519,
      "Ġknow": 520,
      "know": 521,
      "ĠOf": 522,
      "ĠGLO": 523,
      "UCES": 524,
      "ĠGLOUCES": 525,
      "ĠGLOUCESTER:Ċ": 526,
      "Ġcom": 527,
      "vo": 528,
      "EEN": 529,
      "eseĠ": 530,
      "ĠQ": 531,
      "hat": 532,
      "ful": 533,
      "tt": 534,
      "ENTIO:Ċ": 535,
      "ightĠ": 536,
      "ce,Ġ": 537,
      "tsĠ": 538,
      "Ġman": 539,
      "ghtĠ": 540,
      "yetĠ": 541,
      "than": 542,
      "fri": 543,
      "iv": 544,
      "ĠmeĠ": 545,
      "Ġtheir": 546,
      "look": 547,
      "aw": 548,
      "do": 549,
      "ome": 550,
      "makeĠ": 551,
      "moreĠ": 552,
      "--Ċ": 553,
      "UEEN": 554,
      "enceĠ": 555,
      "ĠsoĠ": 556,
      "ĠwhatĠ": 557,
      "ither": 558,
      "their": 559,
      "ĠQUEEN": 560,
      "orn": 561,
      "ĠHow": 562,
      "ĠO,Ġ": 563,
      "ĠOF": 564,
      "father": 565,
      "ĠU": 566,
      "toĠtheĠ": 567,
      "can": 568,
      "tion": 569,
      "eĠwith": 570,
      "ind": 571,
      "gra": 572,
      "mad": 573,
      "Ġthem": 574,
      "AM": 575,
      "men": 576,
      "par": 577,
      "rown": 578,
      "yself": 579,
      "ondĠ": 580,
      "ĠIĠam": 581,
      ",ĠmyĠ": 582,
      "ĠHeĠ": 583,
      "urn": 584,
      "ber": 585,
      "tedĠ": 586,
      "inĠtheĠ": 587,
      "loveĠ": 588,
      "sin": 589,
      "ĠThisĠ": 590,
      "'ll": 591,
      "ac": 592,
      "RY": 593,
      "indĠ": 594,
      "Ġthan": 595,
      "ĠHEN": 596,
      "ĠHENRY": 597,
      "death": 598,
      "sĠandĠ": 599,
      "eetĠ": 600,
      "ellĠ": 601,
      "ORI": 602,
      "ĠThou": 603,
      "ĠSoĠ": 604,
      "ĠVINC": 605,
      "ĠDUKEĠVINC": 606,
      "ĠDUKEĠVINCENTIO:Ċ": 607,
      "Ġch": 608,
      "ordĠ": 609,
      "ES:Ċ": 610,
      "Ġme": 611,
      "Ġfrom": 612,
      "ĠCom": 613,
      "es,Ċ": 614,
      "ĠYOR": 615,
      "again": 616,
      "ĠYORK:Ċ": 617,
      "o'": 618,
      "IĠw": 619,
      "Ġit": 620,
      "esĊ": 621,
      "Ġl": 622,
      "sedĠ": 623,
      "entle": 624,
      "otĠ": 625,
      "INIUS:Ċ": 626,
      "Ġhear": 627,
      "ĠNow": 628,
      "ĠYour": 629,
      "tisĠ": 630,
      "ĠweĠ": 631,
      "ak": 632,
      "allĠ": 633,
      "iz": 634,
      "new": 635,
      "Ġv": 636,
      "Ġla": 637,
      "ĠIsĠ": 638,
      "ation": 639,
      "AU": 640,
      "ĠareĠ": 641,
      "ere": 642,
      "oreĠ": 643,
      "theeĠ": 644,
      "DW": 645,
      "Ġnow": 646,
      "Ġcon": 647,
      "ĠEDW": 648,
      "e:Ċ": 649,
      "jo": 650,
      "arm": 651,
      "when": 652,
      "pla": 653,
      "eed": 654,
      "dw": 655,
      "ust": 656,
      "which": 657,
      "off": 658,
      "ĠOr": 659,
      "how": 660,
      "mar": 661,
      "stĠthou": 662,
      "dis": 663,
      "e;Ċ": 664,
      "Ġ'T": 665,
      "coun": 666,
      "ĠnoĠ": 667,
      "will": 668,
      "ĠI'llĠ": 669,
      "ight": 670,
      "shallĠ": 671,
      "geĠ": 672,
      "giveĠ": 673,
      "ist": 674,
      ",Ġsir": 675,
      "ĠIĠhaveĠ": 676,
      "speak": 677,
      "UM": 678,
      "UT": 679,
      "du": 680,
      "much": 681,
      "Ġhea": 682,
      "mayĠ": 683,
      "ook": 684,
      "ureĠ": 685,
      "reatĠ": 686,
      "fair": 687,
      "EO:Ċ": 688,
      "gain": 689,
      "ĠROM": 690,
      "ĠROMEO:Ċ": 691,
      "bo": 692,
      "takeĠ": 693,
      "well": 694,
      "er:Ċ": 695,
      "ĠMEN": 696,
      "ENIUS:Ċ": 697,
      "ĠMENENIUS:Ċ": 698,
      "brother": 699,
      "des": 700,
      "wasĠ": 701,
      "over": 702,
      "vi": 703,
      "ĠItĠ": 704,
      "sheĠ": 705,
      "queen": 706,
      "Ġun": 707,
      "odĠ": 708,
      "ghter": 709,
      "shouldĠ": 710,
      "ĠWhy,Ġ": 711,
      "econdĠ": 712,
      "ap": 713,
      "ring": 714,
      "antĠ": 715,
      "ĠAN": 716,
      "ĠbyĠ": 717,
      "veryĠ": 718,
      "ack": 719,
      "ment": 720,
      "mustĠ": 721,
      "ren": 722,
      "ĠByĠ": 723,
      "mostĠ": 724,
      "someĠ": 725,
      "ĠMAR": 726,
      "ĠWhen": 727,
      "ONT": 728,
      "e;": 729,
      "s:Ċ": 730,
      "lord,Ġ": 731,
      "ff": 732,
      "land": 733,
      "ĠmustĠ": 734,
      "ĠWeĠ": 735,
      "ĠCORI": 736,
      "Ġgra": 737,
      "didĠ": 738,
      "OLAN": 739,
      "ĠCORIOLAN": 740,
      "lessĠ": 741,
      "willĠ": 742,
      "ĠSecondĠ": 743,
      "ĠCORIOLANUS:Ċ": 744,
      "think": 745,
      "e,ĠandĠ": 746,
      "ateĠ": 747,
      "UCH": 748,
      "sĠtoĠ": 749,
      "eal": 750,
      "ĠLE": 751,
      "e'": 752,
      "ĠThan": 753,
      "dyĠ": 754,
      "ostĠ": 755,
      "ELL": 756,
      "ip": 757,
      "oll": 758,
      "pres": 759,
      "ĠThen": 760,
      "s;Ċ": 761,
      "ĠLUC": 762,
      "comeĠ": 763,
      ":Ġ": 764,
      "AP": 765,
      "ast": 766,
      "hadĠ": 767,
      "itiz": 768,
      "urse": 769,
      "ĠtheyĠ": 770,
      "edĊ": 771,
      "itizen": 772,
      "rong": 773,
      "wereĠ": 774,
      "wick": 775,
      "gu": 776,
      "sc": 777,
      "hat,Ġ": 778,
      "ĠatĠ": 779,
      "Ġto": 780,
      "ĠtoĠtheĠ": 781,
      "II:Ċ": 782,
      "useĠ": 783,
      "ĠKINGĠRICHARDĠIII:Ċ": 784,
      ";Ġ": 785,
      "ge": 786,
      "ting": 787,
      "ĠmayĠ": 788,
      "liv": 789,
      "mon": 790,
      "pre": 791,
      "ĠAy,Ġ": 792,
      "ĠshallĠ": 793,
      "ĠCome,Ġ": 794,
      "Ġwill": 795,
      "ound": 796,
      "goĠ": 797,
      "sayĠ": 798,
      "arwick": 799,
      "friend": 800,
      "nor": 801,
      "Ġpr": 802,
      "man:Ċ": 803,
      "oundĠ": 804,
      "Ġking": 805,
      "day": 806,
      "pe": 807,
      "ten": 808,
      "that": 809,
      "tyĠ": 810,
      "Ġsw": 811,
      "though": 812,
      "Ġshall": 813,
      "ĠOFĠYORK:Ċ": 814,
      "D:Ċ": 815,
      "SAB": 816,
      "ameĠ": 817,
      "bear": 818,
      "nessĠ": 819,
      "ark": 820,
      "ĠISAB": 821,
      "atter": 822,
      "ELLA:Ċ": 823,
      "ĠISABELLA:Ċ": 824,
      "don": 825,
      "tter": 826,
      "atch": 827,
      "tooĠ": 828,
      "rough": 829,
      "wouldĠ": 830,
      "es.Ċ": 831,
      "Ġsu": 832,
      "ĠWhereĠ": 833,
      "urder": 834,
      "ĠUn": 835,
      "ongu": 836,
      "ULI": 837,
      "dea": 838,
      "ian": 839,
      "Ġlov": 840,
      "Ġthen": 841,
      "ĠhadĠ": 842,
      "ĠJULI": 843,
      "aughter": 844,
      "ONTES:Ċ": 845,
      "ĠLEONTES:Ċ": 846,
      "ĠJULIET:Ċ": 847,
      "fl": 848,
      "Ġsuch": 849,
      "ĠHisĠ": 850,
      "ĠSh": 851,
      "eedĠ": 852,
      "ĠOn": 853,
      "AL": 854,
      "brea": 855,
      "ev": 856,
      "tr": 857,
      "oman": 858,
      "s,ĠandĠ": 859,
      "ĠshouldĠ": 860,
      "AD": 861,
      "tu": 862,
      "ret": 863,
      "ĠLAD": 864,
      "ĠLADY": 865,
      "CE:Ċ": 866,
      "long": 867,
      "tain": 868,
      "ison": 869,
      "ENCE:Ċ": 870,
      "ĠLetĠ": 871,
      "ild": 872,
      "ble": 873,
      "go": 874,
      "tun": 875,
      "tell": 876,
      "you,Ġ": 877,
      "seeĠ": 878,
      "ityĠ": 879,
      "ce.Ċ": 880,
      "ST": 881,
      "e!Ċ": 882,
      "si": 883,
      "uck": 884,
      "pa": 885,
      "ofĠtheĠ": 886,
      "nobleĠ": 887,
      "iseĠ": 888,
      "rayĠ": 889,
      "ork": 890,
      "ĠSIC": 891,
      "ĠgoodĠ": 892,
      "been": 893,
      "ĠGR": 894,
      "old": 895,
      "ĠartĠ": 896,
      "ĠSICINIUS:Ċ": 897,
      "doth": 898,
      "ed,Ġ": 899,
      "s?Ċ": 900,
      "thee": 901,
      ",ĠthatĠ": 902,
      "rem": 903,
      "TH": 904,
      "ti": 905,
      "ĠAnd,Ġ": 906,
      "ce,Ċ": 907,
      "Ġ'TisĠ": 908,
      "fear": 909,
      "ut,Ġ": 910,
      "here": 911,
      "'stĠ": 912,
      "EY:Ċ": 913,
      "mer": 914,
      "tra": 915,
      "ĠWhoĠ": 916,
      "'Ċ": 917,
      "fter": 918,
      "ĠIĠs": 919,
      "ĠNor": 920,
      "ĠPro": 921,
      "IĠam": 922,
      "fi": 923,
      "Ġthink": 924,
      "Ġspeak": 925,
      "ĠLUCIO:Ċ": 926,
      "V:Ċ": 927,
      "plea": 928,
      "ingĠ": 929,
      "ĠKINGĠEDW": 930,
      "ARDĠIV:Ċ": 931,
      "ĠKINGĠEDWARDĠIV:Ċ": 932,
      "e:": 933,
      "Ġhonour": 934,
      "ĠThe": 935,
      "rief": 936,
      "ĠCL": 937,
      "ĠCl": 938,
      "andĊ": 939,
      "such": 940,
      "ARD:Ċ": 941,
      "ardon": 942,
      ";Ġfor": 943,
      "BR": 944,
      "aĠb": 945,
      "hou": 946,
      "por": 947,
      "y'sĠ": 948,
      "Ġy": 949,
      "Ġdeath": 950,
      "myĠlord": 951,
      "ĠtheeĠ": 952,
      "leaveĠ": 953,
      "ĠWell": 954,
      "ĠBR": 955,
      "cl": 956,
      "ho": 957,
      "min": 958,
      "ĠSha": 959,
      "ĠMar": 960,
      "hat'sĠ": 961,
      "H:Ċ": 962,
      "ZAB": 963,
      "d:Ċ": 964,
      "soul": 965,
      "yal": 966,
      "ĠtheseĠ": 967,
      "ĠELI": 968,
      "ETH:Ċ": 969,
      "ĠQUEENĠELI": 970,
      "ZABETH:Ċ": 971,
      "ĠQUEENĠELIZABETH:Ċ": 972,
      "reĠ": 973,
      "isĠtheĠ": 974,
      "toĠbeĠ": 975,
      "earth": 976,
      "ĠSt": 977,
      "ĠNotĠ": 978,
      "honour": 979,
      "Ġthee": 980,
      "ĠsheĠ": 981,
      "lie": 982,
      "ĠBe": 983,
      "eel": 984,
      "eĠwasĠ": 985,
      "ellow": 986,
      "madeĠ": 987,
      "'tĠ": 988,
      "IĠhaveĠ": 989,
      "ath": 990,
      "down": 991,
      "far": 992,
      "wif": 993,
      "alk": 994,
      "ĠNo,Ġ": 995,
      "pos": 996,
      "poor": 997,
      "byĠtheĠ": 998,
      "mother": 999
    },
    "merges": [
      [
        "e",
        "Ġ"
      ],
      [
        "t",
        "h"
      ],
      [
        "t",
        "Ġ"
      ],
      [
        "s",
        "Ġ"
      ],
      [
        "d",
        "Ġ"
      ],
      [
        ",",
        "Ġ"
      ],
      [
        "o",
        "u"
      ],
      [
        "e",
        "r"
      ],
      [
        "i",
        "n"
      ],
      [
        "y",
        "Ġ"
      ],
      [
        "a",
        "n"
      ],
      [
        ":",
        "Ċ"
      ],
      [
        "o",
        "r"
      ],
      [
        "o",
        "Ġ"
      ],
      [
        "e",
        "n"
      ],
      [
        "a",
        "r"
      ],
      [
        "Ġ",
        "Ċ"
      ],
      [
        "Ġ",
        "th"
      ],
      [
        ".",
        "Ċ"
      ],
      [
        "o",
        "n"
      ],
      [
        "l",
        "l"
      ],
      [
        "h",
        "a"
      ],
      [
        ",",
        "Ċ"
      ],
      [
        "i",
        "sĠ"
      ],
      [
        "e",
        "s"
      ],
      [
        "y",
        "ou"
      ],
      [
        "Ġ",
        "T"
      ],
      [
        "Ġ",
        "s"
      ],
      [
        "Ġ",
        "I"
      ],
      [
        "t",
        "oĠ"
      ],
      [
        "Ġ",
        "w"
      ],
      [
        "Ġ",
        "A"
      ],
      [
        "Ġ",
        "m"
      ],
      [
        "e",
        "a"
      ],
      [
        "an",
        "dĠ"
      ],
      [
        "o",
        "w"
      ],
      [
        "o",
        "f"
      ],
      [
        "Ġ",
        "h"
      ],
      [
        "in",
        "g"
      ],
      [
        "o",
        "m"
      ],
      [
        "Ġ",
        "a"
      ],
      [
        "Ġ",
        "W"
      ],
      [
        "Ġ",
        "b"
      ],
      [
        "c",
        "h"
      ],
      [
        "th",
        "eĠ"
      ],
      [
        "s",
        "t"
      ],
      [
        "n",
        "o"
      ],
      [
        "f",
        "or"
      ],
      [
        "v",
        "eĠ"
      ],
      [
        "i",
        "r"
      ],
      [
        "e",
        ",Ġ"
      ],
      [
        "Ġth",
        "eĠ"
      ],
      [
        "i",
        "th"
      ],
      [
        "s",
        "e"
      ],
      [
        "l",
        "i"
      ],
      [
        "ĠT",
        "h"
      ],
      [
        "r",
        "e"
      ],
      [
        "a",
        "tĠ"
      ],
      [
        "i",
        "m"
      ],
      [
        "e",
        "ar"
      ],
      [
        "ll",
        "Ġ"
      ],
      [
        "s",
        "tĠ"
      ],
      [
        "i",
        "t"
      ],
      [
        "o",
        "o"
      ],
      [
        "ĠA",
        "n"
      ],
      [
        "g",
        "h"
      ],
      [
        "Ġ",
        "B"
      ],
      [
        "a",
        "t"
      ],
      [
        "i",
        "s"
      ],
      [
        "Ġ",
        "d"
      ],
      [
        "l",
        "e"
      ],
      [
        "Ġ",
        "H"
      ],
      [
        "ou",
        "r"
      ],
      [
        "Ġ",
        "S"
      ],
      [
        "?",
        "Ċ"
      ],
      [
        "ĠAn",
        "dĠ"
      ],
      [
        "'",
        "sĠ"
      ],
      [
        "Ġ",
        "c"
      ],
      [
        "e",
        "e"
      ],
      [
        "no",
        "tĠ"
      ],
      [
        "m",
        "yĠ"
      ],
      [
        ";",
        "Ċ"
      ],
      [
        "Ġ",
        "you"
      ],
      [
        "u",
        "r"
      ],
      [
        "Ġ",
        "M"
      ],
      [
        "r",
        "a"
      ],
      [
        "th",
        "er"
      ],
      [
        "Ġ",
        "p"
      ],
      [
        "r",
        "i"
      ],
      [
        "l",
        "dĠ"
      ],
      [
        "ha",
        "tĠ"
      ],
      [
        "u",
        "tĠ"
      ],
      [
        "Ġ",
        "O"
      ],
      [
        "l",
        "a"
      ],
      [
        "Ġ",
        "f"
      ],
      [
        "e",
        "dĠ"
      ],
      [
        "Ġ",
        "C"
      ],
      [
        "r",
        "o"
      ],
      [
        "i",
        "tĠ"
      ],
      [
        "e",
        "sĠ"
      ],
      [
        "E",
        "N"
      ],
      [
        "d",
        ",Ġ"
      ],
      [
        "k",
        "eĠ"
      ],
      [
        "u",
        "n"
      ],
      [
        "Ġ",
        "t"
      ],
      [
        "Ġ",
        "F"
      ],
      [
        "I",
        "N"
      ],
      [
        "y",
        ",Ġ"
      ],
      [
        "h",
        "er"
      ],
      [
        "S",
        ":Ċ"
      ],
      [
        "eĠ",
        "w"
      ],
      [
        "a",
        "sĠ"
      ],
      [
        "a",
        "l"
      ],
      [
        "ha",
        "veĠ"
      ],
      [
        "c",
        "e"
      ],
      [
        "!",
        "Ċ"
      ],
      [
        "th",
        "atĠ"
      ],
      [
        "Ġ",
        "L"
      ],
      [
        "Ġ",
        "toĠ"
      ],
      [
        "en",
        "t"
      ],
      [
        "th",
        "e"
      ],
      [
        "Ġ",
        "of"
      ],
      [
        "v",
        "er"
      ],
      [
        "Ġ",
        "g"
      ],
      [
        "Ġ",
        "andĠ"
      ],
      [
        "O",
        ":Ċ"
      ],
      [
        "s",
        "h"
      ],
      [
        "A",
        "R"
      ],
      [
        "b",
        "e"
      ],
      [
        "Ġ",
        "G"
      ],
      [
        "m",
        "a"
      ],
      [
        "l",
        "o"
      ],
      [
        "s",
        ",Ġ"
      ],
      [
        "t",
        "er"
      ],
      [
        "i",
        "ll"
      ],
      [
        "c",
        "k"
      ],
      [
        "Ġ",
        "N"
      ],
      [
        "th",
        "ou"
      ],
      [
        "c",
        "eĠ"
      ],
      [
        "'",
        "dĠ"
      ],
      [
        "i",
        "l"
      ],
      [
        "s",
        "eĠ"
      ],
      [
        "Ġ",
        "Y"
      ],
      [
        "n",
        "ow"
      ],
      [
        "w",
        "ith"
      ],
      [
        "Ġ",
        "R"
      ],
      [
        "ĠW",
        "h"
      ],
      [
        "you",
        "r"
      ],
      [
        "e",
        "ll"
      ],
      [
        "m",
        "eĠ"
      ],
      [
        "r",
        "ea"
      ],
      [
        "ou",
        "ldĠ"
      ],
      [
        "e",
        "Ċ"
      ],
      [
        "t",
        ",Ġ"
      ],
      [
        "Ġm",
        "yĠ"
      ],
      [
        "b",
        "eĠ"
      ],
      [
        "U",
        "S:Ċ"
      ],
      [
        "Ġ",
        "P"
      ],
      [
        "e",
        ".Ċ"
      ],
      [
        "l",
        "yĠ"
      ],
      [
        "Ġ",
        "in"
      ],
      [
        "f",
        "a"
      ],
      [
        "a",
        "yĠ"
      ],
      [
        "i",
        "on"
      ],
      [
        "Ġ",
        "D"
      ],
      [
        "c",
        "om"
      ],
      [
        "a",
        "in"
      ],
      [
        "Ġ",
        "E"
      ],
      [
        "i",
        "f"
      ],
      [
        "Ġth",
        "e"
      ],
      [
        "l",
        "eĠ"
      ],
      [
        "r",
        "u"
      ],
      [
        "i",
        "gh"
      ],
      [
        "ĠT",
        "oĠ"
      ],
      [
        "an",
        "d"
      ],
      [
        "h",
        "eĠ"
      ],
      [
        "o",
        "l"
      ],
      [
        "e",
        "l"
      ],
      [
        "w",
        "h"
      ],
      [
        "ĠTh",
        "eĠ"
      ],
      [
        "I",
        "O:Ċ"
      ],
      [
        "e",
        ",Ċ"
      ],
      [
        "u",
        "p"
      ],
      [
        "e",
        "d"
      ],
      [
        "or",
        "d"
      ],
      [
        "er",
        "eĠ"
      ],
      [
        "h",
        "im"
      ],
      [
        "IN",
        "G"
      ],
      [
        "i",
        "ch"
      ],
      [
        "ar",
        "eĠ"
      ],
      [
        "oo",
        "dĠ"
      ],
      [
        "i",
        "d"
      ],
      [
        "h",
        "isĠ"
      ],
      [
        "r",
        "om"
      ],
      [
        "ow",
        "n"
      ],
      [
        "e",
        "c"
      ],
      [
        "Ġ",
        "n"
      ],
      [
        "u",
        "s"
      ],
      [
        "a",
        "y"
      ],
      [
        "O",
        "R"
      ],
      [
        "i",
        "llĠ"
      ],
      [
        "m",
        "an"
      ],
      [
        "ou",
        "n"
      ],
      [
        "Ġh",
        "isĠ"
      ],
      [
        "e",
        "tĠ"
      ],
      [
        "Ġyou",
        "r"
      ],
      [
        "a",
        "g"
      ],
      [
        "se",
        "l"
      ],
      [
        "U",
        "C"
      ],
      [
        "d",
        "i"
      ],
      [
        "Ġ",
        "K"
      ],
      [
        "a",
        "ll"
      ],
      [
        "Ġ",
        "for"
      ],
      [
        "r",
        "es"
      ],
      [
        "E",
        "R"
      ],
      [
        "a",
        "m"
      ],
      [
        "e",
        "t"
      ],
      [
        "ĠT",
        "hatĠ"
      ],
      [
        "q",
        "u"
      ],
      [
        "s",
        "ha"
      ],
      [
        "Ġ",
        "ha"
      ],
      [
        "Ġ",
        "k"
      ],
      [
        "u",
        "l"
      ],
      [
        "p",
        "o"
      ],
      [
        "s",
        ",Ċ"
      ],
      [
        "e",
        "m"
      ],
      [
        "v",
        "en"
      ],
      [
        "Ġh",
        "im"
      ],
      [
        "E",
        "T"
      ],
      [
        "th",
        "yĠ"
      ],
      [
        "m",
        "or"
      ],
      [
        "Ġth",
        "atĠ"
      ],
      [
        "s",
        "Ċ"
      ],
      [
        "Ġ",
        "haveĠ"
      ],
      [
        "b",
        "yĠ"
      ],
      [
        "Ġth",
        "isĠ"
      ],
      [
        "I",
        "C"
      ],
      [
        "th",
        "isĠ"
      ],
      [
        "s",
        "p"
      ],
      [
        "Ġw",
        "ith"
      ],
      [
        "on",
        "g"
      ],
      [
        "ĠB",
        "utĠ"
      ],
      [
        "O",
        "L"
      ],
      [
        "es",
        "tĠ"
      ],
      [
        "ĠF",
        "or"
      ],
      [
        "b",
        "utĠ"
      ],
      [
        "s",
        "u"
      ],
      [
        "Ġ",
        "V"
      ],
      [
        ",Ġ",
        "andĠ"
      ],
      [
        "e",
        "w"
      ],
      [
        "u",
        "t"
      ],
      [
        "en",
        "d"
      ],
      [
        "I",
        "US:Ċ"
      ],
      [
        "om",
        "eĠ"
      ],
      [
        "Ġs",
        "t"
      ],
      [
        "AR",
        "D"
      ],
      [
        "ĠK",
        "ING"
      ],
      [
        "u",
        "sĠ"
      ],
      [
        "sel",
        "f"
      ],
      [
        "A",
        ":Ċ"
      ],
      [
        "i",
        "c"
      ],
      [
        "Ġ",
        "'"
      ],
      [
        "c",
        "on"
      ],
      [
        "o",
        ",Ġ"
      ],
      [
        "es",
        "sĠ"
      ],
      [
        "Ġ",
        "li"
      ],
      [
        "ar",
        "d"
      ],
      [
        "s",
        ".Ċ"
      ],
      [
        "o",
        "p"
      ],
      [
        "a",
        "keĠ"
      ],
      [
        "l",
        "ea"
      ],
      [
        "e",
        "ver"
      ],
      [
        "a",
        "d"
      ],
      [
        "Ġth",
        "ou"
      ],
      [
        "on",
        "eĠ"
      ],
      [
        "Ġb",
        "eĠ"
      ],
      [
        "h",
        "ear"
      ],
      [
        "m",
        "o"
      ],
      [
        "k",
        "ing"
      ],
      [
        "en",
        "tĠ"
      ],
      [
        "E",
        ":Ċ"
      ],
      [
        "es",
        "t"
      ],
      [
        "Ġw",
        "h"
      ],
      [
        "ou",
        "sĠ"
      ],
      [
        "Ġh",
        "er"
      ],
      [
        "s",
        "oĠ"
      ],
      [
        "l",
        "oo"
      ],
      [
        "s",
        "ir"
      ],
      [
        "ĠM",
        "yĠ"
      ],
      [
        "-",
        "-"
      ],
      [
        "her",
        "eĠ"
      ],
      [
        "o",
        "th"
      ],
      [
        "s",
        "w"
      ],
      [
        "d",
        "Ċ"
      ],
      [
        "Ġth",
        "yĠ"
      ],
      [
        "d",
        "er"
      ],
      [
        "Ġa",
        "m"
      ],
      [
        "Ġs",
        "ha"
      ],
      [
        "l",
        "ord"
      ],
      [
        "t",
        "o"
      ],
      [
        "c",
        "a"
      ],
      [
        "r",
        "an"
      ],
      [
        "is",
        "h"
      ],
      [
        "t",
        "Ċ"
      ],
      [
        "u",
        "stĠ"
      ],
      [
        "u",
        "ch"
      ],
      [
        "n",
        "oĠ"
      ],
      [
        "i",
        "veĠ"
      ],
      [
        "s",
        "a"
      ],
      [
        "ĠA",
        "sĠ"
      ],
      [
        "E",
        "S"
      ],
      [
        "Ġs",
        "h"
      ],
      [
        "in",
        "k"
      ],
      [
        "a",
        "b"
      ],
      [
        "Ġ",
        "itĠ"
      ],
      [
        "s",
        "on"
      ],
      [
        "r",
        "ow"
      ],
      [
        "ĠI",
        "Ġw"
      ],
      [
        "ARD",
        "ĠI"
      ],
      [
        "t",
        ".Ċ"
      ],
      [
        "Ġ",
        "an"
      ],
      [
        "sĠ",
        "of"
      ],
      [
        "'",
        "llĠ"
      ],
      [
        "Ġ",
        "our"
      ],
      [
        "ea",
        "k"
      ],
      [
        "ĠW",
        "hatĠ"
      ],
      [
        "i",
        "dĠ"
      ],
      [
        "d",
        "e"
      ],
      [
        "ea",
        "th"
      ],
      [
        "I",
        ":Ċ"
      ],
      [
        "c",
        "i"
      ],
      [
        "y",
        ".Ċ"
      ],
      [
        "ET",
        ":Ċ"
      ],
      [
        "e",
        "'sĠ"
      ],
      [
        "ou",
        "l"
      ],
      [
        "A",
        "N"
      ],
      [
        "O",
        "M"
      ],
      [
        "i",
        "g"
      ],
      [
        "Ġh",
        "eĠ"
      ],
      [
        "g",
        "oodĠ"
      ],
      [
        "p",
        "er"
      ],
      [
        "lo",
        "v"
      ],
      [
        "ĠY",
        "ou"
      ],
      [
        "d",
        "oĠ"
      ],
      [
        ",Ġ",
        "I"
      ],
      [
        "f",
        "rom"
      ],
      [
        "st",
        "er"
      ],
      [
        "L",
        "I"
      ],
      [
        "w",
        "or"
      ],
      [
        "in",
        "eĠ"
      ],
      [
        "Ġ",
        "isĠ"
      ],
      [
        "y",
        "Ċ"
      ],
      [
        "eĠ",
        "toĠ"
      ],
      [
        "ou",
        "gh"
      ],
      [
        "up",
        "on"
      ],
      [
        "ou",
        "tĠ"
      ],
      [
        "d",
        ",Ċ"
      ],
      [
        "le",
        "tĠ"
      ],
      [
        "er",
        "v"
      ],
      [
        "Ġb",
        "e"
      ],
      [
        "Ġb",
        "utĠ"
      ],
      [
        "K",
        ":Ċ"
      ],
      [
        "O",
        "N"
      ],
      [
        "u",
        "m"
      ],
      [
        "e",
        "y"
      ],
      [
        "ir",
        "stĠ"
      ],
      [
        "h",
        "ea"
      ],
      [
        "E",
        "L"
      ],
      [
        "o",
        "ldĠ"
      ],
      [
        "ĠR",
        "IC"
      ],
      [
        "ĠRIC",
        "H"
      ],
      [
        "a",
        "y,Ġ"
      ],
      [
        "p",
        "ro"
      ],
      [
        "w",
        "eĠ"
      ],
      [
        "ĠI",
        "n"
      ],
      [
        "U",
        "K"
      ],
      [
        "Ġ",
        "notĠ"
      ],
      [
        "ĠD",
        "UK"
      ],
      [
        "e",
        "x"
      ],
      [
        "th",
        "en"
      ],
      [
        "ĠI",
        "f"
      ],
      [
        "ĠDUK",
        "E"
      ],
      [
        "eĠ",
        "of"
      ],
      [
        "T",
        "IO:Ċ"
      ],
      [
        "p",
        "r"
      ],
      [
        "ĠH",
        "a"
      ],
      [
        "the",
        "m"
      ],
      [
        "o",
        "ther"
      ],
      [
        "Ġ",
        "on"
      ],
      [
        "ha",
        "th"
      ],
      [
        "e",
        "f"
      ],
      [
        "s",
        "o"
      ],
      [
        "ee",
        "p"
      ],
      [
        "d",
        ".Ċ"
      ],
      [
        "i",
        "ck"
      ],
      [
        "en",
        "dĠ"
      ],
      [
        "ER",
        ":Ċ"
      ],
      [
        "a",
        "s"
      ],
      [
        "an",
        "t"
      ],
      [
        "es",
        "s"
      ],
      [
        "Y",
        ":Ċ"
      ],
      [
        "sha",
        "ll"
      ],
      [
        "Ġ",
        "ar"
      ],
      [
        "ĠW",
        "ith"
      ],
      [
        "o",
        "d"
      ],
      [
        "Ġa",
        "sĠ"
      ],
      [
        "w",
        "hatĠ"
      ],
      [
        "ar",
        "dĠ"
      ],
      [
        "b",
        "l"
      ],
      [
        "th",
        "ing"
      ],
      [
        "ro",
        "ther"
      ],
      [
        "t",
        ",Ċ"
      ],
      [
        "for",
        "eĠ"
      ],
      [
        "ĠWh",
        "ich"
      ],
      [
        "l",
        "or"
      ],
      [
        "m",
        "e"
      ],
      [
        "p",
        "p"
      ],
      [
        "Ġa",
        "ll"
      ],
      [
        "Ġf",
        "a"
      ],
      [
        "an",
        "g"
      ],
      [
        "Ġc",
        "an"
      ],
      [
        "b",
        "leĠ"
      ],
      [
        "t",
        "w"
      ],
      [
        "n",
        "g"
      ],
      [
        "Ġ",
        "J"
      ],
      [
        "Ġ",
        "no"
      ],
      [
        "Ġ",
        "re"
      ],
      [
        "Ġd",
        "oĠ"
      ],
      [
        "li",
        "keĠ"
      ],
      [
        "e",
        "en"
      ],
      [
        "r",
        "yĠ"
      ],
      [
        ";",
        "ĠandĠ"
      ],
      [
        "IN",
        "C"
      ],
      [
        "a",
        "u"
      ],
      [
        "e",
        "p"
      ],
      [
        "t",
        "im"
      ],
      [
        "e",
        "?Ċ"
      ],
      [
        "y",
        ",Ċ"
      ],
      [
        "on",
        "our"
      ],
      [
        "Ġs",
        "p"
      ],
      [
        "es",
        ",Ġ"
      ],
      [
        "ig",
        "n"
      ],
      [
        "L",
        "O"
      ],
      [
        "the",
        "yĠ"
      ],
      [
        "o",
        "seĠ"
      ],
      [
        "ow",
        "er"
      ],
      [
        "ĠKING",
        "ĠRICH"
      ],
      [
        "ĠKINGĠRICH",
        "ARDĠI"
      ],
      [
        "T",
        "ER:Ċ"
      ],
      [
        "t",
        "ru"
      ],
      [
        "A",
        "B"
      ],
      [
        "en",
        "ce"
      ],
      [
        "ĠF",
        "irstĠ"
      ],
      [
        "li",
        "f"
      ],
      [
        "Ġk",
        "now"
      ],
      [
        "k",
        "now"
      ],
      [
        "ĠO",
        "f"
      ],
      [
        "ĠG",
        "LO"
      ],
      [
        "UC",
        "ES"
      ],
      [
        "ĠGLO",
        "UCES"
      ],
      [
        "ĠGLOUCES",
        "TER:Ċ"
      ],
      [
        "Ġc",
        "om"
      ],
      [
        "v",
        "o"
      ],
      [
        "E",
        "EN"
      ],
      [
        "es",
        "eĠ"
      ],
      [
        "Ġ",
        "Q"
      ],
      [
        "ha",
        "t"
      ],
      [
        "f",
        "ul"
      ],
      [
        "t",
        "t"
      ],
      [
        "EN",
        "TIO:Ċ"
      ],
      [
        "igh",
        "tĠ"
      ],
      [
        "c",
        "e,Ġ"
      ],
      [
        "t",
        "sĠ"
      ],
      [
        "Ġm",
        "an"
      ],
      [
        "gh",
        "tĠ"
      ],
      [
        "y",
        "etĠ"
      ],
      [
        "th",
        "an"
      ],
      [
        "f",
        "ri"
      ],
      [
        "i",
        "v"
      ],
      [
        "Ġm",
        "eĠ"
      ],
      [
        "Ġthe",
        "ir"
      ],
      [
        "loo",
        "k"
      ],
      [
        "a",
        "w"
      ],
      [
        "d",
        "o"
      ],
      [
        "om",
        "e"
      ],
      [
        "ma",
        "keĠ"
      ],
      [
        "mor",
        "eĠ"
      ],
      [
        "--",
        "Ċ"
      ],
      [
        "U",
        "EEN"
      ],
      [
        "en",
        "ceĠ"
      ],
      [
        "Ġs",
        "oĠ"
      ],
      [
        "Ġw",
        "hatĠ"
      ],
      [
        "ith",
        "er"
      ],
      [
        "the",
        "ir"
      ],
      [
        "ĠQ",
        "UEEN"
      ],
      [
        "or",
        "n"
      ],
      [
        "ĠH",
        "ow"
      ],
      [
        "ĠO",
        ",Ġ"
      ],
      [
        "ĠO",
        "F"
      ],
      [
        "fa",
        "ther"
      ],
      [
        "Ġ",
        "U"
      ],
      [
        "toĠ",
        "theĠ"
      ],
      [
        "c",
        "an"
      ],
      [
        "t",
        "ion"
      ],
      [
        "eĠw",
        "ith"
      ],
      [
        "in",
        "d"
      ],
      [
        "g",
        "ra"
      ],
      [
        "ma",
        "d"
      ],
      [
        "Ġthe",
        "m"
      ],
      [
        "A",
        "M"
      ],
      [
        "m",
        "en"
      ],
      [
        "p",
        "ar"
      ],
      [
        "r",
        "own"
      ],
      [
        "y",
        "self"
      ],
      [
        "on",
        "dĠ"
      ],
      [
        "ĠI",
        "Ġam"
      ],
      [
        ",Ġ",
        "myĠ"
      ],
      [
        "ĠH",
        "eĠ"
      ],
      [
        "ur",
        "n"
      ],
      [
        "b",
        "er"
      ],
      [
        "t",
        "edĠ"
      ],
      [
        "in",
        "ĠtheĠ"
      ],
      [
        "lo",
        "veĠ"
      ],
      [
        "s",
        "in"
      ],
      [
        "ĠTh",
        "isĠ"
      ],
      [
        "'",
        "ll"
      ],
      [
        "a",
        "c"
      ],
      [
        "R",
        "Y"
      ],
      [
        "in",
        "dĠ"
      ],
      [
        "Ġth",
        "an"
      ],
      [
        "ĠH",
        "EN"
      ],
      [
        "ĠHEN",
        "RY"
      ],
      [
        "d",
        "eath"
      ],
      [
        "sĠ",
        "andĠ"
      ],
      [
        "ee",
        "tĠ"
      ],
      [
        "e",
        "llĠ"
      ],
      [
        "OR",
        "I"
      ],
      [
        "ĠTh",
        "ou"
      ],
      [
        "ĠS",
        "oĠ"
      ],
      [
        "ĠV",
        "INC"
      ],
      [
        "ĠDUKE",
        "ĠVINC"
      ],
      [
        "ĠDUKEĠVINC",
        "ENTIO:Ċ"
      ],
      [
        "Ġ",
        "ch"
      ],
      [
        "or",
        "dĠ"
      ],
      [
        "E",
        "S:Ċ"
      ],
      [
        "Ġm",
        "e"
      ],
      [
        "Ġf",
        "rom"
      ],
      [
        "ĠC",
        "om"
      ],
      [
        "es",
        ",Ċ"
      ],
      [
        "ĠY",
        "OR"
      ],
      [
        "ag",
        "ain"
      ],
      [
        "ĠYOR",
        "K:Ċ"
      ],
      [
        "o",
        "'"
      ],
      [
        "I",
        "Ġw"
      ],
      [
        "Ġ",
        "it"
      ],
      [
        "es",
        "Ċ"
      ],
      [
        "Ġ",
        "l"
      ],
      [
        "se",
        "dĠ"
      ],
      [
        "ent",
        "le"
      ],
      [
        "o",
        "tĠ"
      ],
      [
        "IN",
        "IUS:Ċ"
      ],
      [
        "Ġh",
        "ear"
      ],
      [
        "ĠN",
        "ow"
      ],
      [
        "ĠY",
        "our"
      ],
      [
        "t",
        "isĠ"
      ],
      [
        "Ġw",
        "eĠ"
      ],
      [
        "a",
        "k"
      ],
      [
        "a",
        "llĠ"
      ],
      [
        "i",
        "z"
      ],
      [
        "n",
        "ew"
      ],
      [
        "Ġ",
        "v"
      ],
      [
        "Ġ",
        "la"
      ],
      [
        "ĠI",
        "sĠ"
      ],
      [
        "at",
        "ion"
      ],
      [
        "A",
        "U"
      ],
      [
        "Ġ",
        "areĠ"
      ],
      [
        "er",
        "e"
      ],
      [
        "or",
        "eĠ"
      ],
      [
        "the",
        "eĠ"
      ],
      [
        "D",
        "W"
      ],
      [
        "Ġ",
        "now"
      ],
      [
        "Ġc",
        "on"
      ],
      [
        "ĠE",
        "DW"
      ],
      [
        "e",
        ":Ċ"
      ],
      [
        "j",
        "o"
      ],
      [
        "ar",
        "m"
      ],
      [
        "wh",
        "en"
      ],
      [
        "p",
        "la"
      ],
      [
        "ee",
        "d"
      ],
      [
        "d",
        "w"
      ],
      [
        "u",
        "st"
      ],
      [
        "wh",
        "ich"
      ],
      [
        "of",
        "f"
      ],
      [
        "ĠO",
        "r"
      ],
      [
        "h",
        "ow"
      ],
      [
        "m",
        "ar"
      ],
      [
        "stĠ",
        "thou"
      ],
      [
        "d",
        "is"
      ],
      [
        "e",
        ";Ċ"
      ],
      [
        "Ġ'",
        "T"
      ],
      [
        "c",
        "oun"
      ],
      [
        "Ġn",
        "oĠ"
      ],
      [
        "w",
        "ill"
      ],
      [
        "ĠI",
        "'llĠ"
      ],
      [
        "igh",
        "t"
      ],
      [
        "sha",
        "llĠ"
      ],
      [
        "g",
        "eĠ"
      ],
      [
        "g",
        "iveĠ"
      ],
      [
        "i",
        "st"
      ],
      [
        ",Ġ",
        "sir"
      ],
      [
        "ĠI",
        "ĠhaveĠ"
      ],
      [
        "sp",
        "eak"
      ],
      [
        "U",
        "M"
      ],
      [
        "U",
        "T"
      ],
      [
        "d",
        "u"
      ],
      [
        "m",
        "uch"
      ],
      [
        "Ġh",
        "ea"
      ],
      [
        "ma",
        "yĠ"
      ],
      [
        "oo",
        "k"
      ],
      [
        "ur",
        "eĠ"
      ],
      [
        "rea",
        "tĠ"
      ],
      [
        "fa",
        "ir"
      ],
      [
        "E",
        "O:Ċ"
      ],
      [
        "g",
        "ain"
      ],
      [
        "ĠR",
        "OM"
      ],
      [
        "ĠROM",
        "EO:Ċ"
      ],
      [
        "b",
        "o"
      ],
      [
        "t",
        "akeĠ"
      ],
      [
        "w",
        "ell"
      ],
      [
        "er",
        ":Ċ"
      ],
      [
        "ĠM",
        "EN"
      ],
      [
        "EN",
        "IUS:Ċ"
      ],
      [
        "ĠMEN",
        "ENIUS:Ċ"
      ],
      [
        "b",
        "rother"
      ],
      [
        "d",
        "es"
      ],
      [
        "w",
        "asĠ"
      ],
      [
        "o",
        "ver"
      ],
      [
        "v",
        "i"
      ],
      [
        "ĠI",
        "tĠ"
      ],
      [
        "sh",
        "eĠ"
      ],
      [
        "qu",
        "een"
      ],
      [
        "Ġ",
        "un"
      ],
      [
        "o",
        "dĠ"
      ],
      [
        "gh",
        "ter"
      ],
      [
        "sh",
        "ouldĠ"
      ],
      [
        "ĠWh",
        "y,Ġ"
      ],
      [
        "ec",
        "ondĠ"
      ],
      [
        "a",
        "p"
      ],
      [
        "r",
        "ing"
      ],
      [
        "an",
        "tĠ"
      ],
      [
        "ĠA",
        "N"
      ],
      [
        "Ġb",
        "yĠ"
      ],
      [
        "ver",
        "yĠ"
      ],
      [
        "a",
        "ck"
      ],
      [
        "m",
        "ent"
      ],
      [
        "m",
        "ustĠ"
      ],
      [
        "r",
        "en"
      ],
      [
        "ĠB",
        "yĠ"
      ],
      [
        "mo",
        "stĠ"
      ],
      [
        "s",
        "omeĠ"
      ],
      [
        "ĠM",
        "AR"
      ],
      [
        "ĠWh",
        "en"
      ],
      [
        "ON",
        "T"
      ],
      [
        "e",
        ";"
      ],
      [
        "s",
        ":Ċ"
      ],
      [
        "lor",
        "d,Ġ"
      ],
      [
        "f",
        "f"
      ],
      [
        "l",
        "and"
      ],
      [
        "Ġm",
        "ustĠ"
      ],
      [
        "ĠW",
        "eĠ"
      ],
      [
        "ĠC",
        "ORI"
      ],
      [
        "Ġg",
        "ra"
      ],
      [
        "di",
        "dĠ"
      ],
      [
        "OL",
        "AN"
      ],
      [
        "ĠCORI",
        "OLAN"
      ],
      [
        "l",
        "essĠ"
      ],
      [
        "w",
        "illĠ"
      ],
      [
        "ĠS",
        "econdĠ"
      ],
      [
        "ĠCORIOLAN",
        "US:Ċ"
      ],
      [
        "th",
        "ink"
      ],
      [
        "e,Ġ",
        "andĠ"
      ],
      [
        "at",
        "eĠ"
      ],
      [
        "UC",
        "H"
      ],
      [
        "sĠ",
        "toĠ"
      ],
      [
        "ea",
        "l"
      ],
      [
        "ĠL",
        "E"
      ],
      [
        "e",
        "'"
      ],
      [
        "ĠTh",
        "an"
      ],
      [
        "d",
        "yĠ"
      ],
      [
        "o",
        "stĠ"
      ],
      [
        "EL",
        "L"
      ],
      [
        "i",
        "p"
      ],
      [
        "o",
        "ll"
      ],
      [
        "p",
        "res"
      ],
      [
        "ĠTh",
        "en"
      ],
      [
        "s",
        ";Ċ"
      ],
      [
        "ĠL",
        "UC"
      ],
      [
        "com",
        "eĠ"
      ],
      [
        ":",
        "Ġ"
      ],
      [
        "A",
        "P"
      ],
      [
        "a",
        "st"
      ],
      [
        "ha",
        "dĠ"
      ],
      [
        "it",
        "iz"
      ],
      [
        "ur",
        "se"
      ],
      [
        "Ġthe",
        "yĠ"
      ],
      [
        "ed",
        "Ċ"
      ],
      [
        "itiz",
        "en"
      ],
      [
        "r",
        "ong"
      ],
      [
        "w",
        "ereĠ"
      ],
      [
        "w",
        "ick"
      ],
      [
        "g",
        "u"
      ],
      [
        "s",
        "c"
      ],
      [
        "ha",
        "t,Ġ"
      ],
      [
        "Ġa",
        "tĠ"
      ],
      [
        "Ġt",
        "o"
      ],
      [
        "ĠtoĠ",
        "theĠ"
      ],
      [
        "I",
        "I:Ċ"
      ],
      [
        "u",
        "seĠ"
      ],
      [
        "ĠKINGĠRICHARDĠI",
        "II:Ċ"
      ],
      [
        ";",
        "Ġ"
      ],
      [
        "g",
        "e"
      ],
      [
        "t",
        "ing"
      ],
      [
        "Ġm",
        "ayĠ"
      ],
      [
        "li",
        "v"
      ],
      [
        "m",
        "on"
      ],
      [
        "p",
        "re"
      ],
      [
        "ĠA",
        "y,Ġ"
      ],
      [
        "Ġsha",
        "llĠ"
      ],
      [
        "ĠCom",
        "e,Ġ"
      ],
      [
        "Ġw",
        "ill"
      ],
      [
        "oun",
        "d"
      ],
      [
        "g",
        "oĠ"
      ],
      [
        "s",
        "ayĠ"
      ],
      [
        "ar",
        "wick"
      ],
      [
        "fri",
        "end"
      ],
      [
        "n",
        "or"
      ],
      [
        "Ġp",
        "r"
      ],
      [
        "man",
        ":Ċ"
      ],
      [
        "oun",
        "dĠ"
      ],
      [
        "Ġk",
        "ing"
      ],
      [
        "d",
        "ay"
      ],
      [
        "p",
        "e"
      ],
      [
        "t",
        "en"
      ],
      [
        "th",
        "at"
      ],
      [
        "t",
        "yĠ"
      ],
      [
        "Ġs",
        "w"
      ],
      [
        "thou",
        "gh"
      ],
      [
        "Ġsha",
        "ll"
      ],
      [
        "ĠOF",
        "ĠYORK:Ċ"
      ],
      [
        "D",
        ":Ċ"
      ],
      [
        "S",
        "AB"
      ],
      [
        "a",
        "meĠ"
      ],
      [
        "b",
        "ear"
      ],
      [
        "n",
        "essĠ"
      ],
      [
        "ar",
        "k"
      ],
      [
        "ĠI",
        "SAB"
      ],
      [
        "at",
        "ter"
      ],
      [
        "ELL",
        "A:Ċ"
      ],
      [
        "ĠISAB",
        "ELLA:Ċ"
      ],
      [
        "d",
        "on"
      ],
      [
        "t",
        "ter"
      ],
      [
        "at",
        "ch"
      ],
      [
        "to",
        "oĠ"
      ],
      [
        "r",
        "ough"
      ],
      [
        "w",
        "ouldĠ"
      ],
      [
        "es",
        ".Ċ"
      ],
      [
        "Ġs",
        "u"
      ],
      [
        "ĠW",
        "hereĠ"
      ],
      [
        "ur",
        "der"
      ],
      [
        "ĠU",
        "n"
      ],
      [
        "ong",
        "u"
      ],
      [
        "U",
        "LI"
      ],
      [
        "d",
        "ea"
      ],
      [
        "i",
        "an"
      ],
      [
        "Ġ",
        "lov"
      ],
      [
        "Ġth",
        "en"
      ],
      [
        "Ġha",
        "dĠ"
      ],
      [
        "ĠJ",
        "ULI"
      ],
      [
        "au",
        "ghter"
      ],
      [
        "ONT",
        "ES:Ċ"
      ],
      [
        "ĠLE",
        "ONTES:Ċ"
      ],
      [
        "ĠJULI",
        "ET:Ċ"
      ],
      [
        "f",
        "l"
      ],
      [
        "Ġs",
        "uch"
      ],
      [
        "ĠH",
        "isĠ"
      ],
      [
        "ĠS",
        "h"
      ],
      [
        "ee",
        "dĠ"
      ],
      [
        "ĠO",
        "n"
      ],
      [
        "A",
        "L"
      ],
      [
        "b",
        "rea"
      ],
      [
        "e",
        "v"
      ],
      [
        "t",
        "r"
      ],
      [
        "om",
        "an"
      ],
      [
        "s,Ġ",
        "andĠ"
      ],
      [
        "Ġsh",
        "ouldĠ"
      ],
      [
        "A",
        "D"
      ],
      [
        "t",
        "u"
      ],
      [
        "re",
        "t"
      ],
      [
        "ĠL",
        "AD"
      ],
      [
        "ĠLAD",
        "Y"
      ],
      [
        "C",
        "E:Ċ"
      ],
      [
        "l",
        "ong"
      ],
      [
        "t",
        "ain"
      ],
      [
        "is",
        "on"
      ],
      [
        "EN",
        "CE:Ċ"
      ],
      [
        "ĠL",
        "etĠ"
      ],
      [
        "il",
        "d"
      ],
      [
        "b",
        "le"
      ],
      [
        "g",
        "o"
      ],
      [
        "t",
        "un"
      ],
      [
        "t",
        "ell"
      ],
      [
        "you",
        ",Ġ"
      ],
      [
        "se",
        "eĠ"
      ],
      [
        "it",
        "yĠ"
      ],
      [
        "ce",
        ".Ċ"
      ],
      [
        "S",
        "T"
      ],
      [
        "e",
        "!Ċ"
      ],
      [
        "s",
        "i"
      ],
      [
        "u",
        "ck"
      ],
      [
        "p",
        "a"
      ],
      [
        "of",
        "ĠtheĠ"
      ],
      [
        "no",
        "bleĠ"
      ],
      [
        "is",
        "eĠ"
      ],
      [
        "ra",
        "yĠ"
      ],
      [
        "or",
        "k"
      ],
      [
        "ĠS",
        "IC"
      ],
      [
        "Ġg",
        "oodĠ"
      ],
      [
        "be",
        "en"
      ],
      [
        "ĠG",
        "R"
      ],
      [
        "ol",
        "d"
      ],
      [
        "Ġar",
        "tĠ"
      ],
      [
        "ĠSIC",
        "INIUS:Ċ"
      ],
      [
        "d",
        "oth"
      ],
      [
        "e",
        "d,Ġ"
      ],
      [
        "s",
        "?Ċ"
      ],
      [
        "th",
        "ee"
      ],
      [
        ",Ġ",
        "thatĠ"
      ],
      [
        "re",
        "m"
      ],
      [
        "T",
        "H"
      ],
      [
        "t",
        "i"
      ],
      [
        "ĠAn",
        "d,Ġ"
      ],
      [
        "ce",
        ",Ċ"
      ],
      [
        "Ġ'T",
        "isĠ"
      ],
      [
        "f",
        "ear"
      ],
      [
        "u",
        "t,Ġ"
      ],
      [
        "her",
        "e"
      ],
      [
        "'",
        "stĠ"
      ],
      [
        "E",
        "Y:Ċ"
      ],
      [
        "m",
        "er"
      ],
      [
        "t",
        "ra"
      ],
      [
        "ĠWh",
        "oĠ"
      ],
      [
        "'",
        "Ċ"
      ],
      [
        "f",
        "ter"
      ],
      [
        "ĠI",
        "Ġs"
      ],
      [
        "ĠN",
        "or"
      ],
      [
        "ĠP",
        "ro"
      ],
      [
        "I",
        "Ġam"
      ],
      [
        "f",
        "i"
      ],
      [
        "Ġth",
        "ink"
      ],
      [
        "Ġsp",
        "eak"
      ],
      [
        "ĠLUC",
        "IO:Ċ"
      ],
      [
        "V",
        ":Ċ"
      ],
      [
        "p",
        "lea"
      ],
      [
        "ing",
        "Ġ"
      ],
      [
        "ĠKING",
        "ĠEDW"
      ],
      [
        "ARDĠI",
        "V:Ċ"
      ],
      [
        "ĠKINGĠEDW",
        "ARDĠIV:Ċ"
      ],
      [
        "e",
        ":"
      ],
      [
        "Ġh",
        "onour"
      ],
      [
        "ĠTh",
        "e"
      ],
      [
        "ri",
        "ef"
      ],
      [
        "ĠC",
        "L"
      ],
      [
        "ĠC",
        "l"
      ],
      [
        "and",
        "Ċ"
      ],
      [
        "su",
        "ch"
      ],
      [
        "ARD",
        ":Ċ"
      ],
      [
        "ard",
        "on"
      ],
      [
        ";",
        "Ġfor"
      ],
      [
        "B",
        "R"
      ],
      [
        "a",
        "Ġb"
      ],
      [
        "h",
        "ou"
      ],
      [
        "p",
        "or"
      ],
      [
        "y",
        "'sĠ"
      ],
      [
        "Ġ",
        "y"
      ],
      [
        "Ġd",
        "eath"
      ],
      [
        "myĠ",
        "lord"
      ],
      [
        "Ġthe",
        "eĠ"
      ],
      [
        "lea",
        "veĠ"
      ],
      [
        "ĠW",
        "ell"
      ],
      [
        "ĠB",
        "R"
      ],
      [
        "c",
        "l"
      ],
      [
        "h",
        "o"
      ],
      [
        "m",
        "in"
      ],
      [
        "ĠS",
        "ha"
      ],
      [
        "ĠM",
        "ar"
      ],
      [
        "hat",
        "'sĠ"
      ],
      [
        "H",
        ":Ċ"
      ],
      [
        "Z",
        "AB"
      ],
      [
        "d",
        ":Ċ"
      ],
      [
        "s",
        "oul"
      ],
      [
        "y",
        "al"
      ],
      [
        "Ġth",
        "eseĠ"
      ],
      [
        "ĠE",
        "LI"
      ],
      [
        "ET",
        "H:Ċ"
      ],
      [
        "ĠQUEEN",
        "ĠELI"
      ],
      [
        "ZAB",
        "ETH:Ċ"
      ],
      [
        "ĠQUEENĠELI",
        "ZABETH:Ċ"
      ],
      [
        "r",
        "eĠ"
      ],
      [
        "isĠ",
        "theĠ"
      ],
      [
        "toĠ",
        "beĠ"
      ],
      [
        "ear",
        "th"
      ],
      [
        "ĠS",
        "t"
      ],
      [
        "ĠN",
        "otĠ"
      ],
      [
        "h",
        "onour"
      ],
      [
        "Ġth",
        "ee"
      ],
      [
        "Ġs",
        "heĠ"
      ],
      [
        "li",
        "e"
      ],
      [
        "ĠB",
        "e"
      ],
      [
        "ee",
        "l"
      ],
      [
        "eĠw",
        "asĠ"
      ],
      [
        "ell",
        "ow"
      ],
      [
        "mad",
        "eĠ"
      ],
      [
        "'",
        "tĠ"
      ],
      [
        "I",
        "ĠhaveĠ"
      ],
      [
        "a",
        "th"
      ],
      [
        "d",
        "own"
      ],
      [
        "f",
        "ar"
      ],
      [
        "w",
        "if"
      ],
      [
        "al",
        "k"
      ],
      [
        "ĠN",
        "o,Ġ"
      ],
      [
        "po",
        "s"
      ],
      [
        "po",
        "or"
      ],
      [
        "byĠ",
        "theĠ"
      ],
      [
        "mo",
        "ther"
      ]
    ]
  }
}